
window.FingerClickNN = JSON.parse('{"model_topology":{"class_name":"Sequential","config":{"name":"sequential_1","layers":[{"class_name":"Conv1D","config":{"filters":32,"kernel_initializer":{"class_name":"VarianceScaling","config":{"scale":1,"mode":"fan_avg","distribution":"normal","seed":null}},"kernel_regularizer":null,"kernel_constraint":null,"kernel_size":[3],"strides":[1],"padding":"valid","dilation_rate":[1],"activation":"relu","use_bias":true,"bias_initializer":{"class_name":"Zeros","config":{}},"bias_regularizer":null,"activity_regularizer":null,"bias_constraint":null,"name":"conv1d_Conv1D1","trainable":true,"batch_input_shape":[null,256,1],"dtype":"float32"}},{"class_name":"MaxPooling1D","config":{"pool_size":[2],"padding":"valid","strides":[2],"name":"max_pooling1d_MaxPooling1D1","trainable":true}},{"class_name":"Flatten","config":{"name":"flatten_Flatten1","trainable":true}},{"class_name":"Dense","config":{"units":1,"activation":"sigmoid","use_bias":true,"kernel_initializer":{"class_name":"VarianceScaling","config":{"scale":1,"mode":"fan_avg","distribution":"normal","seed":null}},"bias_initializer":{"class_name":"Zeros","config":{}},"kernel_regularizer":null,"bias_regularizer":null,"activity_regularizer":null,"kernel_constraint":null,"bias_constraint":null,"name":"dense_Dense1","trainable":true}}]},"keras_version":"tfjs-layers 4.20.0","backend":"tensor_flow.js"},"weight_specs":[{"name":"conv1d_Conv1D1/kernel","shape":[3,1,32],"dtype":"float32"},{"name":"conv1d_Conv1D1/bias","shape":[32],"dtype":"float32"},{"name":"dense_Dense1/kernel","shape":[4064,1],"dtype":"float32"},{"name":"dense_Dense1/bias","shape":[1],"dtype":"float32"}],"weight_data": "NqxYPnDpBL6AM7E+8k1uPkutOr6SNw2+JC/EvUbmYL1Cht49J2krvmYJdT1ujRG+iyHROzagjj5K2U6+yz2tPp9exj5Lzk4+PiJmvgERJj2nBXY+UfKOPhWshTt6srg948bsO32Ujbz1jp67TT/nvfv/zb0kFD2+KaCDPSLmLb2X98A+4E5GvVo3Lj41p4M+idEXvtE/NL3Jcss9MP3RPSFnQr6M9To+QL0cvsMP+rtROwG+/EFCPmFNQ72scF0+1kw7PUewnj5cNiI9bwYxvPQQCj7rNYc+/quhvUW/ij4uiBW9xwcVO0H0I74tUSG9Gl6HPb6nP77tILa9Yw1gvUldkD4djuW9MXRxPoM7gD52gdU9ODNOvYB8jr7kQT6+LcdVPhFDwLwL24a9unlCvXlXjLryvtg9CHOfPhYwgz7+iyA+jLu4PqcQC77nqP69BrqYPkCZw7yxZDK9saMcPrsQYb2fN6a9rSf+vZ2Mvb1SzMi9nQRavD7R8D3/s36+3EOmvAAAAAA191C8t752vB59ID0AAAAAtVS9vA/lwbz8rz66jPcrPW+wi7wAAAAAo5C+uxiaC7z578897yWLvCRAG7wetcG8wygUPbUzd7y2DlC8cTu6uw56Cruu52q7qVWeux8/vrueRIY9AAAAAFXyXLwAAAAApkjuOwAAAAAxS4m+kzXMOpMXc75Oy16+yGdIvPVSG7v9cKi6E2KCvaNprb2Cza29MHeWPKFd6rvcpf265kB1voz5/L2TzYS+x8BxvnjRhr5n9yk95/1GvFJkfr4w9E2+tuyZPNOQSr66g8A8rBvqPPf3TzyvBIu8k5gUva6nOTh/Tbe9AgOOvIP0hr4lmIe7IqSJvsrVm77ri/O5Rj2ru3SR8rycymW8owspvQmWiL0g1DK8WCNPuwg4HDxoMoC+2R7evUHKlL5iV22+Qd6dvpe7OD08Cmw9gkSJvi5OYb7MdmA9phtlviMAlTx3hmW88JEVvHZ8GLoiuYg7ocolPGokrb2nZBq8Tl9ZvjOdAjw01Xi+14p9vjpaujwfFw09IXgHPRGIOLz+bHW91KeIvZVEAD3a4ag7iFGcuxVMfb7Rh669d0+Ovp1Hhr7WiIa+K47DPN2ANz1tk0m+RMCJvog9KDwoPla+qjQtPAt8sLwQRMe89xyAO/eLxbuCqIi8ipNevWsfbjtuBGK+qBW8u+0BUL4O92q+Y3U1vKXj1bwDxKA7DcOIPD2iYb0/19i9kHSYvLMql7qMcF88ijhovudR1b1M+G6+370fvgZCWb4AO/I3LJhavGRFUr7rcku+za5/vC8nHr4cM7E8HhM2PJ6iCb2J1A487ENEPKkvE71j7Vq9B2mOvEiOKL52Sb47ArRZvtToNb43xaw7YL9pPMIDAD0J68A7deBcveVMrb1SzQs9MMtTPO6OAj39JTm+LsMQvhnXWb5+w0q+PJIxvjyPMzz99Qy8CrEVvvz2ML4Zg2g7tiL1vfJFVT0eifq8sfMcvd3tCbtv2p+8uJLEO7wNEL0nqgG85IsEvgRlhrxSxza+8+4tvkoFsjyNA4a8mQ6ZOzctJjyuZEe9T1elvSpYpbzk0Ro8M4hku0FEIb7Gzdi9ZVsuvvKxH76u0xi+XZvXvOj0Qz1CmCy+oTcfvsuTCzuDfzC+pz1busjrH71Qap+82HsbvAkfybwWACW9um+QvUTLWDwC4bW9XyvdPM/BML40GAe+UIkIvN6h8Ltb8WA8iwtOu0qdu721Wa29zlyPPMw6urzAZRS9qs8xvgFLm72TIyC+KHYKvnMv5b3awfK8GmZAPFjP9b1WkyS+uqodPZ8wF76w48O7EhMAPRSTVr2bIN+7+xjsPHLIpjxofx+9yaygu5O9n71ZgTe8qXT2vdppIL2kjQu5aMyouXfu47vS2Bk6Q8vUvOAjv70gSdO8wDUvujgg1bvwDc69/vHbvS3LxL0nYAa+TOdCvd2MAL2L+IY776mCvWenJ764L+M80kWyvRkfhDxdd/k754JmvbCwvDw1vLi8WLFHvDA6Db33rh87NuuivOy+6rxpYgy9ll6/vL2MbL3AX3G5JopquwbT67urplC7tKU9vWsLEb2yPLm7ZMAnvYzDh71fdyk9u1EyvSw8j72nUli98s4yvca8/TpOgiK9qBWZvdJkMTsGl4G9ZgsFPc3QPLzVCr284TAqPTiburt4RFo8t/zzO3x/hTxYMFs9G6rdvPNf2bw7a/M5cfcBvRq2B7yUP808b6fzO5A6C73b2K69+/5QOwUy4TzH7ru8OW0/vbUlE72ylsM7HDorvTbQ0TreIDS8bvKvvGpPUL0CmAm93leFu9iBgby/iUU8tRFpvE3VDb1biIA8n++nvCOzUDxO9UW9DzHmPDv4QT1b9Ym86lmzPMJnhDz1vRC9waHEvIFze7y3wQS98o8LPfN/or0pX0C92xNGu0LbLjsopTU7kAOtvXkm6jxqYDE7XzmEPbZ4qb3rlbG8GE5fPCvl7bxdXe08D4YKPetEoDxVB988MM9zvTkFITzB1BI9bIePO74BNr0YmwM9F7v/PUXOrTzHlCs+7wAzPrF9U732RIe80vjpO5Wlsry2PlQ9XtWSvZSwn7zkkM88hmwuPHj53D2qnO+9dR8KPsCehz3JVkM+SvMCvrSGMzxZISQ+dvbCO1aTvLwHbRI+XzDlPJ1uFT3Itlm9fcUQvQ/YDr2VZgI8gNnGvFlsw7xW7Hc+K7Bmu3sBiD46uoM+tEeqvMIYMbxaoMU8CDNmOu5hXz2dl5e984AEPAwaHDyQ34c8cwozPmue3b07jJM+Rc1CPgfUjD53l529Rgahu12hYD7/+yA+fx3ovA9vbz61LuK7wE5POya2yr2hemc8zLF1Oq+xK7o/gyU8k+c2O6tLiD7mX2Q74uaRPjAPlD6uFa29ZmoxPL+ZJT2wc4G8oEI8PX+iML3UuwS9dh5lvL5sPDyXHpY+x4UZvg3rlz6DTYo+K3qRPvQGmb0a69k8QuyNPti4eT6tOeU7rruOPjkgp7vOuQG6icSFvTwWAzvxOYo8wHptPL7ObLyRfCA7r4aRPsSjRLvc0J4+nguWPk2D/L3sqqS8lWfyu35wSrtBfaE6M8uGvddow7swIBA9elxWOnPBgD5jGAG+s/iPPrEwlD7qBoE+g68bvu/OvrpGC4s+YOSSPl7apLyruGg+adoEOsW+trtnBVC9pNaVPHTXoDzc1+07azd3vTjUhjrT14E+MqWNPA5RXT53sWI+8feQvfx9hrylVAG6aFQZvUrvBzw3gtK9dG4LvXqRCz0NOi080NJePgVWIL6Kc4A+o1CDPnArgj7iGxq+iGvePES0VD7mrYE+v57IPDRuIT6QOPy869h0PO6hRL1T7j66hTIdvPa6Ab2Hlu+8mAAjuj8SLD5qG7K8kO9sPvinUD5Ajna9Y6MGvQNHyTwdaJW8sms1OipXnr1+/dc8XbwTvT1h3zyx4QA+czwUvlVuWj6L8TI+f6tQPiL+Eb7aRhQ9L8U6PrB//z1EbiG7lq0uPiUw4bzyTxI9F32MvFPfCT1xaIW8yDYlu6WvM73qKsi71L8LPimxX7u7LDU+G70cPnqpl726sUE8doJRO6wZ7Ty+TAK9trkcvca/Cz0YEAO8OvuDPD38Cz5wNce9fxFTPjsd+T2UNhE+wmCyvaDsmDxpMQw+28U6PsnPJ7yX0r49to4yPYoDsDzELTm975bMPAsie7zPiwO9+F7Puzhp0jyU1Jw95oEHPRX3iD1rgaA9d5m9vUSAHD3yQrY8oubmPFJHnrvZzoG9L/OUPKyfqbtOr5a80mWoPedd671t/bo9pjWPPXRoqj0AgKq9Ivm2uwtinD0B3uc9FzV5vNu3m7tixVs8zMUqO5Hn+LtdF0U8QFMUPdkX/TwDzqk7mPg8vCduvjxUmp28nErpPOwl2zwD0JO9Zf+dPG0UZTxFx7Y8IaGOvMwuoL3Ig6Q87ayNPKd61rzaGAQ9quUPvuZfxDz9OTE8JQeLPQ6UI7022G47ERBNPPKqOrxo2KK8SLWxPIksXjxcnyK7lsqYO3SsqTyQhiE8+mcuvUchhL2VK348RjlkvdjNqrs9l4u8zq6svV2PoL3Av8E8CDHlOy8tEj38Jiu9MtiWvYsq1zyncD48pj5xOllfar1SUey9MWOAvFg6/ryRWqe9wOi7vQYJ5ryAxda91eYYu9a837yIU7q9i4SPvCTOZDsIx5e8xg7xOqaxJT1rF6U8i/btvDzkLLuuY9O92gsgPPqxB77dvQ2+wrQpO3RRtbzRPnS7WqLzOy7ntTye/qC9Z2bAvGCvPbsabJ+82tjTvdIzDL61SBK+MxnjvbSsCL4wsnM9BXkquqELCb5Sms29guNxPNA/C74i4wa8JzwZvAGviTx2TCi7p28nvL7JhDzogTe98LXyO5t2FL6b/rG7g6DxvW4iS77mWRK95KiwvGuNMT2qeR+9eHIMvW13rL1QsxK9Xyoku/UGRbxVFBu+qhUPvmPFOb4reBC+SxM1vmFlNLv8yow8C8MbvpocA74LPhc96doivhCBA7zM4v+8TeKjPBBvNLzaSJc8fFK/PHuAaL2bsPS8pr1Evm7JrrzN+UC+TClUvi6m/7us0r47JZUbPdqTRryBOwi9o9PCvZBF7bzRLPm7Tv7wO9nRP74eUP698ixMvgqfQL5B6kq+hxxXu2bM+zyIqkK+xcM4vnb8WLwjRkG+yhjHPPd56zs3RfS8QNuqPNDGaTwUBLM8KoBDvbUluLqncym+Qd4FvZhkUb5/SDy+HT0DvLr5HTxWwki6nb2Au1H+kjxvLOm9TIvTu5IHdzzdHW88jbM4vuN7hr3S/kW+vXlJvjcLWb6XrBS9GOIfPQUGY74KoxS+UXm7OyzfHb50pTa8Kj/VO7HVN7wW+IM84yfxuyr7kbwjnj+9d9edvIuROL6Eog834z9LvqdKY74GiQC87w3cO2JgMrxHCFM8vJsivUP81L3pui88cVv5vHoapjzp/C2+xrcGvogCSr69HFO+/LBZvm49tD2nPFM8UWlrvi56/70qfWc63rw+vvfHbDsGlL48vc9avSNMvDq/2wU9cP6hvPvhbrxSEoA8481NvkzJjDyp7F6+YD9TvnBG+zz8VyY8ZoqnPIL1sruFm7A8dQ2hva/hj7tFHDQ8eOKmPH/nKL41O9+9Tp43vuicNr6uY0i+KecHPSBHJbzdDVC+3r5HvmjWkTxP+w6+zLVCPTGjLTxVrm69sAq9O/UdEL2HYgK9deqXvdciKD1ut6u91HfAPN3kGb6Yrt294IBQvDG/tDyVExA7Z+nMvHFiE707AN+9LYVzPCgRBzsyh3I8FNgjvviux73/gjC+QGnzvby/+b2EavM7GQTZu7NNF75+3C2+ygVpPPIZv70pawG8ISe0O0iZFL3j09+7f++UPH/rbTyCSei8xKS3O4VyZr1vKO+8akTDveAL9b3tC0e71tDzPNaPzLyRVbw8PrFWvaP/mb3f6jC9IB4DPc0fPrxDktG9TsrGvVS42b0vkuy9HxsKviWuOTy5htO7tHMdvhBjwL1r7EI9Im/kvf9lpjyo38S8yxMqvGAPyLstL9o8+SuWPG5NDL3rSJu8ymI9vqjNBLzcJQ6+QLRDvpfyoL1YZeq75a/UvLgRnzzR3Bc9dB+AvcEQvDxg02S5AUVFvJv2Hr6K3SK9JdMRvsw6Jr5p5ii+rTMGvdMhQ7rXwhe+YCnRvQHgUj1IBg++U1vnuwpQ6LwdBwy8E1/pPGvZCr0uty48Osx2vONfjryTqFS9OfNJvK0o7L1sI7C9aY9gPZq+gjw3dwc9LLDpvHw1/DwaSMW96QzSvBVNBDy0iUG8IXImvn47Er6Lt+m9vwA4vl29qL0ggtI62E4UvYEqqb2dzy++OtGjPJGRQr1dEA699CKwu8zmPb03QeY8NealPM2uOjxTbiC890sevNro2Ly5Dji7k16QvNLNdL3U+vu8I0sSvc6tLrxTs7K85l1su1oCPb0/M9U7BX9GPD/GBjw/yRa9Xikavulob7xAeYy969cXvcS/Hb0Jtcu8msHWvARJc70XDTu84HcMvZmd8jyVdcm8sm4lvTSODzzKfAc9S124u1nskr3DvwI9CRCqPCNb/7vJW4u7r1URPL5aF73CIuS8hgoaPeoMbbzyMQI994h2vcoFLjxeieU8rR7zvKcIJr1wdvu9DbNau/KBMzxjgaE8aDbUvSf0RjxB1LE8t4MzvT7M+rxSB9c8i+/OPAzc77yiUn29J++EPCFsETzBRkm8hGtLvfpAl7xuCmE9UoZOvE5Wgz0Uo3E9PQ1GvYyfPLylKl88NJucPLO57DzcKl29o/3euh77/byeMpW8DIgrPYlHwL3tDWQ9YfD7O6toqj2Nkai94DoAvF2dvT0L3Vy8fqTBvGpIqTw3Rea8rO2DvDQgGb32P1i8I2iWPM50ejzYiBi9J4qtPHo4BD7NVM48LkiLPfYUsz0iUnG92VROO/kqJ7wdYPi8bcYuPR0YqL3Y5888AyQvPJAQhLxOWWk9K+H7vZwU3j22IXM94/zBPRjpwr37EAc9tIaJPVfnfj3BWJc7MdW+PVssjbxe6di70i/CvTMI6rswGII8Y9INPCZ7ubybK8g7AQzhPc+hMzy8xtM9HdHiPW+tNL11uig7u9QivVvFKr1Y9aY9RAvyvZeYsLwC/+27f6u7vJ18mD1BqAC+XK2qPSf4sT1CUNU967QLvhFAyjxT9eA9/B6lPbbfmbzdUeQ9+WnnPMbBAbw4v3y86owzvATHjbzRnaO8jTI9u7luTLw1vJA9m6i6vHsk4j39Vwc+3InZvQKF77yZgW68hvyCvPmmjD0rDa69XWwAvXjdorzxkze8lUaFPZkLB75wPwI+5L+MPYg+5j2rv829AOGWvGb+3D2BD5A9MEHsvMr4rz2VDBO8yfvlPMZvbb3Wh+A8UaYlu23gUTy6lTa5rgbfPGfmtT2M9XS7jrSgPb219z0HNMi9BYeIvEarEDtYcYy7H5YiPZKEuL282EG96lUwvNOY87sfAso905gIvusU1j1DFPQ9gNDkPUc/y728uSm8iezgPaD4Az4GcSK8irtVPXvWaLwPUcg7VKkjvfQinLsIOum7cvrsvCxRa71jvo66lfwEPnvu8Dwhffg9wVMQPqBsb72D83+7/rE6vGKf8Dz/Xmk9B4jJvdReBL3dVoq8oxhOvCLq9D0dKRy+yv8GPsaKnj2z1Ro+R2zUvQvEuTssJRM+LKOePawqG73RyrM950Bxu66A4bvWqlK97bjRPDBgAL1taZ47MGmHvVa39jyDQNc9NqjOvCre8j0oKRU+B8aQvRC90bxX4128DK9pvCMkWT0Ain69psgtvR655Tzl0rq83KTOPT4Ryr2ZQgo+ynUaPlZJJT63n1m9J/PKvErDCz7b3eU9gRa2OjaWED4D2aU7AivUvHT52bxbBCy707XWPJrHtbzzOFe9W0KxO8swFD6TOae81yonPp6NCT660Ky910kSPIp/PTxk8aA7njdIPUjaNL2yE9s8Sxs5vJ51Dz2I2ic+V3UZvkMbKj5OJhM+1ncjPn08Gb659yE9em0VPqClJj4qtmk8UBQfPjZDI7w5Waq8mToLvfSjYrt6yIS7A1ZQO7o6T70K+HM8BvwGPq8wBD1bJrs9DBS5PbbisL0WhYS8TbgFvf29HjyvnhQ9QHnGvUZbsjxsz7M8CgEmvBOs1D1NXde9NEcFPreT7j1CiC4+QHP+vcBzl7xq8Aw+zw7DPduRtLw6zMQ9nP9dvGWZcjybEZa9u7VqOoPRY7yH6cA6GgqLOyHoCjpp4es9h14PvIWbDz6H8vc92Jd5vS4eELw/CfG7gmq/vPdbJz2NzYi9WIM1vAC1oTxU1MQ8rjuYPSAB/b19Ue89FFzSPQNP/T1o4PS9hMl8vAJwzT38T+U97Tq0vObU0T3vk/K82Ce+vM9fZ73zaZq8Q2AVPLplpzutDWY8tXHpPPboNj6KalC82oUKPtfV/D2UuQm9yz6kuuibkjx54Ui9vw4DPZlBLr04dp07HAITPISDIby87b89xA4avr1cDj4kRfA92ZMjPs7ZFb79raS7y6HrPRinvT3TPJC81egRPlYeqDykuAy8o/gsvRZrmLuGAsa8d6cvPS5GCr3wUqi8W4IzPtmFpzzrdC0+zJkvPnJgor0Uy9Q8twfsu24vRbtwQUU90qmyvRRa2jyw3s08t/kAvQ9SIj6lm9u9RyJMPszC0D082T4+miHQvU7i0jxdmx4++Yz0PR0sXDsrIQU+BOCGPD19f7tuM/68FazQvK2O7joqpJM8aKrXvKz/ZDmp6wY+eD8hPPtoLD7gCDs+/m5tvQpsjDs+EnY8eNhCOwiwhj0kQTS9TsW/tbR+HrpkB186PKwOPuGhKL4jpzk+yljvPcH8Mz7yL+O9FxiZPMASDT6YKR4+KumEPE7JBT40YYm74pQUvewpHb3t6887B/+jPCEQX7wZWqq7JnqzO6hCWT6dv5Y76Tc+PvDcHD66K5C9QzA2vK4sEL3wa1+8PdMoPdaIqb3aKc+8p63buo9CRDwBdzw+px/QvdBLRz6qQQY+oBhVPmctgr3Jkok85XUpPr4rAT75NWy7ERkXPiU4jbzPY3483ExUvaPc5bw020y8Dfs4PBgEm7xVB708v1gnPqvBJb19GUo+iLk0Pih0kr3OSI28b4AWvPuebLv0q8O6xcGEvZWGgTySkuW87i7XPIfkGT667AC+nAdOPq+6UT5+VTM+hzAivjfxdDulWyc+BBcqPkaSAL03Eg8+DkocOv/947soGD+9ecwJuxWILzwVcI88K99dvGqVuTyZdzk+IhWXvL6IAT6tVCM+vo1pvXUqIjydmXA7p+CZvPSEdz2vXcm9vT/7vFfA/Dv319i8dBo7PiDt+L0WHj4+8As+Pq0lDT5+6/a9z3dOvHEYDT4JkVI+hB52uAcNzj15UV+6RuUfPfyWOL13eKU8WbWjvCRko7wH5jy8Xhg3PA7Z5D3tJ8q84IepPX+X2T3ImZy9SxsBPY2usLxhbmg8j1MdPSIWPr35YMq8kjFiu02FgbsrhPQ96hTkvf9xlT08fMY9ZxivPb6C5r2K4n68KEaJPUJKzz2uQYe8gEN3PR7m5Dtsvd27l8JjvWT/QLvRpom8aYlAvDkpGLwOUqA8b2F+PZJHAL0ERx09yLg9PWA5uL3H24Q8wKgGvOyhTjzld3g9KgQevUAWkrz6Mgc8Nk3Hu1XWxj3alMe9tadpPUw0jz33K0A9lSS5vX+dijxqwbI90WWyPTJxWLyDjJs98vhBPCC2jLxmtpS9Wk/POzaABj3UVp87lNtdvU3JeDvBfcI9uopIPHPRfT0kfhA9lLu8vVBy/zrEgqA7jTc9PFXL9Two7LO9nAl/vOf5gbwhces8QuxuPdGS0L0xVx49V5zVPTKGYj1OkHe9Vck1PShvgD3ASo49ugQBPbXy4D3RdO07JGCeuzGwAr2mgxQ9E0FdPO7TvrsmxXW9X/ZdvMNDxzyKZ/A8RE9CPXOw2DuDBl69b8LAPG19XbzIluo8FdyrPeHfsL0fCBI8BcmmuYF5gjwRU4Y9xfkKvps5gTxKvGg92wkSvP8XqL1Lw8486rVZPX/MsT2vGA67IDYjPc3Dj7pjlCA9Yp0svdLgYDvx44A8VfuKPCEUkbzDFw29sryQPIDfsLzpDPe8hCokO/5yTr09z5s87O16vDAtzTuyK9Y8fOEjvRkDkzqq8Q+9H4WQPG+2hLogs9e9IyMIvG0RbzytWlC8spYUPIKnYT3bP8G8sYnBvAaGezsSgrs8EeNvPThli7tc7mS99cjPuh6IgDt1MCg9ONSDvD843DvY8qU88LEsvERpXTqv+qu7Bg7RvDhbIDv+twI9So2NPLqEgT39e2C8XpzXONFYhDwSl9k8eeSyu/l7qr0iOwq9rNMbvBhWD72nM+88X62NPFxxQrv2qxQ8rEEMPHdJJj0KZAS8s9MaPWQmkr3r4M88HHleusu13zsTW5q8MwQYvbtAiT1Q/9I8ftXcunVjhLx8oMO7svm6vJ9z8rvPLWY9pzNyPe4iFb2Hvb47CG71vBtRnjzG/H88RHtHvZnvAbzgZaS8u1AVPa+Z1Lwx2U893LY+PXqlqDubNgo9cq0sPG0ZzjzCACc8x74JvYQVN7yVQyK8mbMcPXy4VbyHXry8jpluu+xWt7sVd1g9trj8PBKryzy3hPi8bUuAvE3pNz0Q0kM9Aq9QvescnDz2HDC9r17lvOhmvbpFkqe94CWJvA0KqLyXgDo8u/wMO8dAgz23dCu81a2DPLpbyTuw7Ea8SFZLPQNmm7yhOQy9xKMYOjxirTyIuFO7y9sXPGmynjtFCEa9vCoxO5fWXrzw8ZO9GsgbvbqSe7w4Sg+8tYI7vBxHh7to5Re9wTjJOz/f7bsTF6k8hAShPBhynL08j169EcwXPdEcab1DHDw8UWPqPGe1eL2LH3o9R8C7O4b1OL3bMmk8fUPYu17cw7vLIgi8hX0SvB2cgDuYIg28YXfdvN+cRb1FqwY8DHLkvONCnL0QaNW88kGhvMcFLjt+mWs9oW/PPAmFVr1i0wU9ATC9OUhXZbyyD+q8boI7vf4Pk70Q/mO9fAWDvQ0tSbzrkGM8VzuIvWXxLr2ZtW88zRxIvSGXjjwGsPS8tqvWvAaKlDz8VDQ8W08kvFd1HTtneqq84daTvd50nzz+sY29in2FvWiyADzSsCM8jxoKvM8VlTx6Ltg7EGiAvczizTz05Po5o8oSO6VOd73r4Je9lbrJvXK1mbxutgS+qIFePFJ66zxitKG90n1ROy/aqTsCTyu9POV/PCfkbbzzeLa8Q4h6PGtpAb0iOQO80Mn0uxqcnLiHmdO9qhZPvJlvxb3e/tu96FTxPA/KtTyWHie9+xtsPUDFAD2SvFW80TZTOybn4zsdiQu6ZqS5vRTOa72QX7O9Bzyqvfm6pb3Dj6E8s2K9u9F29b2idoi9rqTYPAJJJb3+qgI87TOovA3/p7xisL04o0KCPPYPW7xZPwI7znuAvCXXRL0olSk7pRlUvaOGBr217+E8YqgCvPxMFLxIBEU8oqWVvElWIL3O4sq67ICcPAMliTyo2zq9UjR/vSDSEb1cgRy97lWovG3uwjy0Zpg8AjQCva/mmzt4PD09KkuKvK3kjjz03vm6TuaUvYEv/7viohI8CH/dOpYRoro/Dmy7xM+6vX8A3rxguxi9WZMNvTrT7rtMWlg8FbrFO+Xi7zztsae7X4oSve76HTyr/Ns8rc2+PIRahrzLZpK9sdAjvbRfEL1VoVK9bVcCPfhuyTwwwOK8Ov5ZvW5j1zyhB2K8eWnHPAZbgzx51Qe96jiVOqdPgjs6v0O82D8HvIm/AT2vJBC9jtYePLs/kb3pqXu9E3C0O52cWLwWI5y7h5KGPCZXM7y3i7q8sguau64OsLxgPhi9QjQuvSQCpb1QdJ29mMjpvP7oqr0Oyfu8gcstPLLGGr3UnZK9jwSvPAnX47xMaQI7t8jGvP/whrxabK288GgLPaqZIT0NJqk87JOPPJsFkL0XbUa8KJJdvZsaRL0hBV49s0r9PKo2Cz2iszo9ceq/PGyG3br86P+7lXiPu3HDubvrjZu9L+dTvXXJhb0rxIW97dNavdnzMj3roc08vltqvWtagb2v6RQ9oaREvSS7MD1AZR49QSdjvclQRrz5taE8terPvHq2wzyi+og7TMfHOpx6Dj2aCQi8t0mIu3SUhTsLMLQ8NdlgvNxpFz1WfI88/G/PvC9D5bxnB4q7BQiiPCJPer0LM6S99iMEu74RUL2yLRa9o4+5vEx2Qz3jYUq9aHesvXhZy7yINB69ZnBxPE8tCD1qN2O9L1axPBb2SDx2D8e81YsyPbjTNLyQRQy8pfIxvSvM5jxwiSc9v3voPJRviLyBhX48l7n0uwWbtrvk8IG8AaKJvNtoDDpJsGA7SPRGveyzx7zFZ6k8ARQBvVtXTT0Hdm28gUkrO5AKmrvetk+939uDO7+xnTu0kms9UIBFPEAbPb0HopM7GFybuzk9lLsCZhM9hShjvOrKGz2lmcq7arSbPJPX/zzg0q480G8evJezrjz0zt08sFf6OiXhNL1/2WQ9kN6EPLYAFb0Icl08lfKavTCFHT0Rc8C7ap6GPZlW1Dxd7vY86+pPPfXbpzpk50U82EbpvCnfBD2USz68kgpgvRpGrDzvDAI9TaWnvH1RCz1Unpw7HhdYPZ7FgjyTx/g8b7skPc25BL3P85284ECdPNGzV7zfcs+8eZGDvDH+Qrwi0NU8yEttvEUWmzzPtLe9cKWePVFmYT1rZLk9HzdvvK0ohjydkhg90ypLPEl4OT32eL+6ZuamujOEB7yLhke9AA81Pbn9c7x8/qA73BgaPBOZsDwgBWY9/CgNPcnkYD0NWWA9ZvXruyegiryjUKm8yj58POhAJr2dI967WY24PDmqtrwsqae8L4RSPD4Nnb0hhEc91oNCPU/Z0z2XkxC9ZIskPPs1Mj0c3qs8QAZRPIOGhbzSg648h4rzug9/pr1FCCW9qoMPvMMqAz3sGjU89OImPETWCz2jyca5YIWJu8z3E7wI4xW9k3+ePBSXoDy7CPs8VrWWvSmzML2lrLs8XyJUuJmi7rw6TE48lrxOvewdKjwaeXy57xlQvK63Eb04sf88kIthu5X60Tyllpq8+as/vV9XozyHyI+8C/odvWJpx7z7A3e7zxYhvY01hjyfBII8zE7cvGm38jz/CAC9z1k3PIKO8DxgyjS6/Zv9PBi8g7xBjbU8AOUavcmYrTyv7Wc8M0zZuuYkCL2edyy9QEwlvXrtML2Gzgk8lPrjPHLjTzxLvDa8GSB/vPaiRj290JO9HlS4PN87iLsowIi9MOLfPD0zwbwxQtW7ySJUvPWYMryGJW48ndjIPIaOqzrUHvO7Gsf+Os+SaLyacWu7aD0JPO/AjL2sfbS87FK9PBJp2rziLuY8XukhPEz1jb1XC0098WekvC/PkjwZxRC8TmtMPBRRUDtVivc54pmiO/wLr70WUvA7pem4PBY8Cr0+w667sRntO8Yz3TxiQgA9NmJyPD0Dg7xSYwC9MtWBu4lYUTwpHOA8pKDdO6jzbDz6fBc9i7CnvBv0hb2NEwK8fuvhvKtWzzserlq8tj9zvUAJ3TysuF69G54DO3eYYbyXdCM8FqaEvBl3xbwtGgQ9clOOvc2xhjz/BaU8kpcxvQKTe7y75gs9yUooPGkzYzsfWEg81FwEPSaEKTxtcYS8KoEqvSsuEz2FPAa9MXwxO/feET0EdpW9sFkNuzBhUrzKf+u8953KubxLrrwtu6u9PpYevXlN7rvl55A8d5lNvFvcrDz1rxS9Hg9BveLVnbyqT4+9TiYBvGvyA70IBka9RmGdPGeRHDyXOrO8QQQwPcFZ5rx0GUM9U5N5vG1Yizyk4uy8UY3APOuIfLxjrJ48O95CPREkAb1mUWA7nAoZPezZVbycC7K7aEPMPCUW0L2S9Vw8v8b9vEN1DDzfTuI81M1dPfDvHjya07A4kmkfPcVVgL2y0M47yfKKPEwKj70DCvo7G9T0PK3RmDxrCWo9yb2fPLhpaDzo5Me8czh/PHQDkry51NY6TGMjvCer3zx5AOY8xfJqvTjM6LvJA0o87STZO0HQ0TywEjQ7kX+/vcUg/buv2KS6K2UJPQB9wLxCmbg8fKIQPIEqIb3MKho9Dl3Lvf/zOT1GTpE8MsJ6vO/p4rw5wMK8gWv6O3NWfz1YARI7UbuXPIuu0juhiK08tTIQO/QtAj1WVC08nmflPGJdCz0Wd0K9VjsFvYkI4DvSSdC8SAUNvCz8zbz7Oju9EnulvE41mbwz1FI7MomDOyV2EbvZ7RG6jmyTvVZubDxUZ4a9iVE5PU23SDzBySK9vk9eu9LDjrwR2No7pMokPfxJaLxg+KU8hlHmPH17Gjzi8WG8tgB+vPUQurrNLok8/cgpPaETlL3Iwv286yoAve9Eqjzqa687GEJJvVMFWb2sY+s89MekvLWg4zzJPdW8D8/rPFU3ILxNgRu9tS3CPMw8hb23ZUc8gPX9PItHmr0wQcS8blNXPHQoSLxUHjI9HGpNuwD2SzwTUOM7uqhrvOYvUrsuv2480wYMPE54Fj0/cRI9fc2mvXp1oLyrSTM8Vv9aPLgO/Dw+lXe8WvVVvSp+v7z9QGC5vFg+PFQWFD00A067LyoYvAFcnrtq5+k8LfGFvQL6PT0/AY68/dQvvWbxT7w5fOY88M7IPBxWYbvP9bE8eOwGvREWabx/Kp29kyNNvXobWj0nrgi8rBshvKGqCD3vQ2O9tzzmPNfiJjybhdi8Os71PBAOiL3yUCK9KuK2vEcAUr0Fq0W9b7W4OxMZNT2UlXq9u5NpvSJbOz0X3fu9p74tPfYttbt7SZi8dIVDvEzaz7rOsjg8zWEyPct7R7kK3DO9xGTwu/fKi73T2sm82EhsPXj5vDsIGow7Afz4O7zMk70wAte8tRi0vNaX2zzLWxK90tmIvJiL3L1ns8C9AK27vDvgYr1VJxG9jCXNPAn3L70w0iG9CX1ePFBGx72TI9M8hHTzO5JND71rnyG96er6u2uiH7yhXNM71KKvO0m2D72/Yhy9telMvS7/xb0QniY9unTFPESDaDpqVmA8QeSSvZRQIL3eSxw9eqsJu8SEILwsWHu9aj6avcrHAr3S3qW9IVYmvWpU1zuSDes8EYIiveL1o73QZAo9PhDtvZxaJjyESA+9RISXvdhZTbwXFcQ82qV5uhpUEbwpSMG8JTtZvJZEl7zwPS+9Vmo+va+rhz3BguW7Ev5zvEqkLbz7fS2960IIvL5U6bz0Z8A89uS6vEKVnL2dML+9vAuzvYDthby6oBK9Tv6juogowTyRprW8zhJUvRdr3btlw7O94gaSvMKMLL3ydpa9RWGyu6su1jwn6QQ9dU4pPOddQryJ25m8H50evLbMrL3xw5y9SNkXPZFOUrwInoM7T0crPdstp71Dt5O88ellvNHSWbkhHWU8EbdEvJj7SL1sQo68MMcMvcu5D70OuJo8ctetPPtTIb1Iz6O9itvkPAJh+r0Sl+E7owuTPO/Jer20vAi8M9upvCRMIr23EKM8kbQLvS/Hr7yARzU8mG2ovQssgb3bNvw83KnevD+2v7x66OQ8qhh/vQYyeLy00QM9Z+kEvDO1mbux/qC83QlAvaFTjr0971W9qG5TvZc+PzzCpN48gh84vdS5cr2xFgE9TP+yvSsj9zzic928BIKcvS6Y7Tyul52773OkvGrYrzth3KU7fWUivWZVJDxzVay819lbvPwdiTyeiAQ8nKDiPPHN8zxtpHa9AVIPvbaCRrtXnnY7nUh8u8fQAb3m2y69UOynvcurl7zqMlG93PEmvItUYT1lVZq9+RApvav6uDxHbYS9LXmEvIeoNDpu+Dq9FLHYu3iW3jwgJ9O4kHUGPU7XDb1YRDy9y6p8vI9da710ph29f5qHPcxNj7vjlWu82b0SPZX367zl1JY71dcvvNEWm7xuwRS83hbZvHZeib1zUJO9waosveJbV71bGyE90gsLPRCwqL2q54q9iYTKO6qiu73qJtg8KiamPHOjY712ipo66WyovKbrxbxppUE92N0yvdOKl71AY9a8g9UNvUaRWr19cXQ9SdKqu1E4kTzDIXM9/iqUveXsSrxFbMU7nB/RPCOkfzxXBhy9dzJyvQ2Aob3j2Ou8ITm3vaOipzzsuUi8IwagvXsUdr2pPUg7VtWjvTXHQDxk9YY63d2ovey8kbynTBm8oOE4PEKDXz0aJKG8yc8PvTEp4bzjMkG9ydfevH95zjxjPM27+zWXvNN4lTw/Ta+8BfuVvAn2GLxG2gY9fY2kuTCiybwmgZK9TT23vSm/orwyahG9S0wPva29Vzq39hy9fUJ8vZTAYbpxcK696d0zPfcd1rtPSAi92D9HPK7PpTwllzk8JWKBPQspCbyUsCy8KRw5PPLbpL1OQlS8Z0qkOiv5s7tDD/G8qiQyPHLRFr2ngio8PI8PPS9cfTvs5yK8czdrvcIoiL1PsiS93AJLvTRgI71h4yy9R+wbPYb5PL0cRAG9W1q+PM8Vtr3zvts8bZjOPI88IL2J1yu7M5HfOxSVWbzOaII6gBCEvBOE77wGmh68WmuDvVE4Mb2j6NQ8JY/OO5HUzLuahgw9FM0pvQucVLzWB5y8ts3svHLCMzzIHR29yJ2kvSPqib1cd+87mT0kvADz8jtiz2a6sdTIvJysS7wy26U8p7yzvZHBSD3ZMxc8iLmSvfX/pTsrK467wc7pO4reRD101CO7nbJAvdmYA71e9pi9qmlMveAH4jz2K0s8JDQAPaIdFT3rQpW9z1ctvbRTtLxB9FC89lkLvclHgL1tVqK9mdzDvclI7bznWJe9ZHU4vHqwoDz9Kai9UqChvWR9xzxKBta93FTnPKggqLudLIK9V3BXvAdXnrwePb67EAQAO/K+iLyZ8Ce9mrBPvHLGKb38ExS9NO42PR44yLvOwvA7lIssPcy82r1YXVO8+vvUPIBN3Dz+u4o8oGFbvX/WO73jYkG9Zg09vcNNsLzbxKS8xEuFOoZalL0xInq9lb5VPWtz6L2J+0M7ViQevR5KUb3YLW68tKVQPDgJhjt5Dwc9QwSrPF4PJr0D5KM8gMoKvTbXl73kACC7C5iYOw/eoDvunY08VsmxvXbRjDpCLaK7q2TluwwhJD2V53G9GiurvTLiar2vB1a9N61JvV5dnryCFhw8AQ6EvSkYJ72BY1g9vwJivWoKmTw705k8wpRYvbaGdDxaxo08pUkdPRkOgDxEWqu8d6oPvcaSHL2iZTW9ovBVvXCGYDyY01s8pQqSPKYtxzz2CAu9dpiJPBL0GTt1GLi8hLXbO1h/FL2ZMV29WzlrvdHNbb1fLRW9gPb/PFAbUj1Ilw69KiiPvYrZ/zzOPd+9O2AoPEP3+Dr6DYa9FRAaPA97jruMSQU7gqJgOXXxmrxoHQ29Xb8rvN21jb3QlZ+9xwmYPALmHjzGGYq8zzZvPd0Vgr1DpzW9XE1avGDiHz11Y6U8lvg9vXkYYL04zVG9ECEzvL4Dmb18+4c7ZDUpPYeghL1yGW+9rRUwPcRK271Svh08YPzHO+mcr71IQFU84LXeOzyMm7ypcP48ngi7O6IIXb2CQB29+bvVvEJtKb0w1B89H/0VvOTwprzAIYU9qwdAvWZpZ70LgQO8gMHAvKHVyrxTk4m9o8qmvdJGwr0ZkmC9WzTEvcGO+zzXbLY6+Ns6vWtk3bx86+07GuzivXnMULzUbYE8e+grvV/VfTwZrHg8Zo6dPNtsFT2UhwK9IEubvWM2tLvJTXq9uISwvFz6tTtJDiM9vVEYvD1F4zwc0J29wDvyvGgG4bxugxC8AapBOWx8r72E8aq9dBnivaSRqbwniqO99sS0vBV2Fz2M33S9cP5tvXruR7tZOlS9aqFevPEktLx0hZe9i7IHvWVP4bxRXDw7Gb8uPbaLIr2x7J+9fX2nPOw2UL3cVDu9sN+7PJhUrDuAbl+6Y3EjvAEKx7xyvjW9ogOJu6NIpjwqxzs8bBtCvZbeT70aWIC9S//PvLRwW72dMKi7insLPaBgbr2pv6G83muQu+k6vb1MCiw94l+pPDaNw73ppa484MpCPXquuDvGScQ8iH8+PNIVer3EAHq8IE90vdX//byrBi09heQKO9bx9rwstio9AIBSvUYPBL24qQ29e43kPHh6Jr1/e4S9PUyjvcU2nb0XSF29OqTKvUBs1DpqmIw8EPgavfoXLL0BtFs8YnrXvajKDT2vBrK8R/uXvWUwabthCUC7TM99vEAUh7v5pOK8UCG1vfZs/7w2T7m9a7p/vfodPD3VrL68DjWvPFVmZT3S74q9gI+QPLEw5bwqvxU8Q/WPvF2RVb2RwnK9v5csvdvQnr3RXpa9LOugvG5CFD3ls6+9plXCvWAE6ru51wW+pzZFPa3uErxSqye90Cz7PIumVzxTUZe8TxNHPObJxTyWsEm9UIb2OsuWnr1/d3y9EEpaPe5xGr3J7aq75jpZPFPBPr1m7nc87Xf2uy+UnjodI1089hCYvUXNub0d9ae9qAipva8Ovr3MQfM8UG/7Ox+EOr2bFm+9t7QNPdJ56L24gSw9q6EGvM5EL711D4882ESiO2N8Lb0x3E89DKfAPKEllb30H4Q8z6KgvVhGoL3kgRs9rL0EvJTSEzz7NUm7nrGMvf//lrtcE/28TB1OPAvc8DtJT0G9gnyjvfFBmL0CTGK951uTvW4Tl7unAh49tHilvSM0mr2hdLs8IIDyvc2BAz0tAJo8et0hve19i7x0cTA8/KCTPPoufjzUyES8BLtuvSO907ke2ZK9qpxvveXWizyvphc9GYmpOyeFtjwhpzy9SiyJvBPvlztTVL28BpoHvWbMVb2unge9/JzAvTMmnL2X+cW9epVSPK/0Tz3yRpC91O1zvQWJ3jza97m9Az1yPYMErbwO0bO9rWAtPP4r17yc3q884aUUPCrjg7wuGgG9GRWEvKiQjb3REo+9SlkfPIqZjLwQzJA7ehVbPOI1EL12Chk8KuoPvaMadjvmcNK7AUeRvcx23bwPKpS9uX1svfDrn72QPfE8LBLRu6wPpr2PyEm9lsdfPOp0pb1Zrpc8Wn/sOj1Kpr1IvJU8vyenO+Kn+rsZFbk8gBvuu0NDt7xK03u81b1VvSqJrL1g+g08G+irvHJ20TwcM2Y9Dg2yvcHcAzuJEiw7pGOHvKA2fTxoXpa9LsT5vPscUL1TCB698E0SveyTOTuzZEg9jnFMvUv1Pr1U1v48j624vQ3K4Dxq+jW8ZJoKvayi1bxtIrE8yyWzOxtX5zwF2EW87ZNivemAITxcB5O9KmytvSud9jwZ1jY87OHpPDWb2DtIokO9WaTUu44tRTsfdgQ9jknKuxVxd71sxqu9F5unvS7kYb0xqJa9/OOwPEmvYj2sRBe83l9YvZMTvjyXOtu9uWDMvC/RGrr56Bi9OlSBu4COmTwPrzK8wW5sPZgdDbyn0qu8yxASvHt9AL0V7M289mEUPXtIHjyZldO8BajGOxxkrL26A886/u3qvB0HgrznAAa6ZFglvYW4Hb0iiom9v+9RvdmVOr1J+ze8yIsJvLzej70bLUm9ody1u6ugjb0dHiM8tRwUPA4bb73RcxS9qh0TPQKDG7yTToY8W43GPD+q8bxSA+K7+Ku4vUo8qb3hM0A9EF/zOyzCnzz81E89j0Y+vWpAR70BzUW8mxoyPM+0kLyTqjG9kMIovc29pL0Yz5e97INfvQYdKTrVTKM8SLa9vGJmML1S1C48YAilvVpIODxpNLQ7jWdevS96wby5RXk8ZCm8OxZKZztx6DG6OlJNvcPJmbyeXzO95NpjvdXaaz0KKPi7G4WPPF63Mz1Liqi9CzMPOhAHqLy+/1G83wzCPMtchL2CVpe8Jl97vcesMb3pPV+9fHsFurqKzjwQXYm8Ns2VvZNRwTtGz+m94L8rPUlb5bph8Hm9tp2/PJT1hTxYhoo8gRTWPCKkp7vOAtq86kxPvKenLr1xhh69OpdCPTPeQTuFF+a7tYNHPfzqs73XiJC8rjTUPFFoW7w6v+I5Ij0Hvfyeer2Hv6O95vGHvE7gXb2Ne6U7cXowPbp5OL2KR2692FQ6vByrhr27bus8aeYRPVXnCb3MJTA868N1vFTvSLwJGoE96t2fuuLYsDul1Eu8mNgevKNoPLzLQrU8168SvUgvMr1hWys7OoZPvUWbnLw5ch+8kLSCuxyFMjsjHaW7NFy8veANkrwsJr28hWilvD4LALxLfN08qi45vWOMCr3Dal67ubeivWZrB7w+tm+7DR54vTGU+DxV7ZM8OT2rPMD/HTw5Sxo8buAsvNssn7z2pCe7hXcyumHk3zyEWQw8zjrRvOo9CzpTXra8JPS5u9h1Hjx2Vem8S/NTOzJRbDyPE0u9Z14IvQg4yDy5vLA8LkDKPB9nlTuDfRg9WL8BvQ3fED3h4Mq8qn/CPGfB4jxAsK+93WEQPX9YhbnbmQo8puFwPJZEuruIMTo87VNWuxgL97ww9BC99exQPQrO+TwC1Nw81PemPMgOf72gc/685PfhvArnGzwYkn44thG/OvgKp72yXF88rnNBuWBR5ryORxq7EbTkPPXoTLtXu+o7zx3TumanQryQoy09tECPvCBXtL23joc8amskPZU31jw5Dhw86xzSvIf9uTqjfqs8+vipOwdhLznMLmI8VRWUOxmJr7xF6vo8EFvOvAfMPjtst/E8CItgPFaQnbq+fRw9y8SXveRkLr0PcBG9T3YRvVZkNLxVRyE9QAnCvFpbvLyzcFg9FBWWO+1DMz0P96k8MaRkvRvj1DyiHhE9zgnBvC6mCT0ba7W79DvaPHCD6DzK1Pm8NWAyOwGY2DwaXxO7eL0TPLy+ELyj0n69MuI/u6JzCL37kxQ94rnIPE4W7Tucf/a8+/i8vAXDvzmR62m9YDyBvLHcczwBo7S7mxLIu1maaT3O3vy7gvxxPXXyFb3VbJ+9rTQUPK1oybx07og8dUmTPE4u8rwoTem7U00DuiXtG70zdlG8LjU+PG1oRbzoQ448aoTJPNs3eL1bkJ48qSBjvG3RlTuP/qw8T4qqOenTir2PTEK9t1G8PGP6D70wdP879bcaPd5u/bycOI28MY7lPClBPb18mFK85HLDPMzNxL1o4su8HLSrPI2/ITwZGCc93B5mO55lkzsJIoq7XywgvOyi2bq3ID89K2cRvfo0SryQEqy8elGUvB/0FDqIop68Ej66Oxm1YbwcKQg9X8u0vXW2jDzLgCS7VArOPKbrBrtnrNs8bmEVvTiW8bzSlNE8APZpvSxkJT1tTxk94DsBvdRMuby1/ne52jGkPBSuHz3/HBo7Qtrzu17zDbzE9N67ZZO6vKAG1jozjKK8IRvpO6qHST2zg469avfKu3M0z7vgdn67IDzbPOaaLLxygFa9I9lMvW7St7tKkqy7UlEOvUFyVzxD/PY72lOEPG4WED089mq9mE0QPTx9U7wMUpC9RCgDvT3RyzoMTYA8Y5+LOwlduDyM+08862vlPLRtgLvzxiy9C0GPPYKJiDyiEhg9QvwyPbEWZb17e5A7NOGDunF0bbyq1Xk8Gj5OvDD8Lr2NQJg7Z20jPUzMUDwUPEQ8MCz6PC9JqbwZBiw8qa/XPP55TDqACre8Fr7oPAmVv73v9oo7rICUvA3GP7x9lh89jLnLvNwF5Ts/mrk7JE2DPAvyOLvm4Kk8Sd5FPCyLrjxmFy68RrIWvT2Drzvg5ZK7ESEIvNMfKjzUB148k/xHvby0lrwkWOe7bI8oO1LBP7wx9qI8AcqxvGp/szxUv728AtVVvLn5Uj0u8Mm8DGt8vTzJi7rQ9Cq8uM/HPNavOz05NgK8LRKmvApDATvh6gS9IOgGPSsvIz1elye8BPipPLuk8jyXFDK9hQqkPHDj6LyXKKe8l+rTPHeza7oJnIq9Y56VvHoJxju31jw84OsCPPjgeLlmITq8qRFZu5YhJzw44BW97SCmPAxT/Lut65y9XdO3vF9MdbtQN7Q70FVTPVkCY7wE8WU8wgHvOy28yjvOj3U7tYNEPRfJabwdiM07JTX5uyKXgb1wUom8a7PTuuTCAryzLfe8ImkWPX93Or1IE0C7Lyspvewtg7xkXvK8F9hGPAR/8Lye6kw5GxJYPXEQ/7x98+08NYa8OLuFvb09AsQ8Yw0zvFaP9bxlgTM9mC5avH8lhbzzfAe9c+QhvAQch7vUn2Y85PPzPFd9iDxKx5I8wb+OvZ+5HjrQURa99NlVuhC9CL1ctdA7Y/6XvVhzuLvNrG67KaWAPDiAlTun4Rs87lBvPChlJrwBdbo88OmQvdSxejxJueO89HCWvdtR2Dsu45U7LO8Ou6EPurviWcg8WLlnPHRvIbxL1xG9GakluzBZI7rCSwG8/nvvPNv0DLyuncS8YEOovD4VGL30PBS8uVVmvGlq6bz+qWa90MNtPBibwDv5bV28MPX+OzZ2MTu28hW9OMVIvHePhTzhyCO9PaGpPGToK7qo0JS94wVxPHn3nLvOJgQ8WuhvPQDsijxUBGS8zwRbPE1vQLxLxCo8NBRpPXaQuLzQhJ272qtyPHxy8ryFqDC961VNPM9qArwNwxy7odSmPCPNPL0YWCc8i2qhOjllNjtwVWW8c8m6PNS8vDwgZJa8azeLPMfPrrzOzkk9NjUrPJ6lIb216tY8O4XPu0D+tryUs6g8adu6PCrVhr0=","model_metadata":{"format":"layers-model","generatedBy":"TensorFlow.js tfjs-layers v4.20.0","convertedBy":null},"info":{"dateSaved":"2024-06-23T19:45:05.986Z","modelTopologyType":"JSON","modelTopologyBytes":1341,"weightSpecsBytes":256,"weightDataBytes":16772}}');
